{
  "version": "1.0",
  "truncation": null,
  "padding": null,
  "added_tokens": [
    {
      "id": 0,
      "content": "<endoftext>",
      "single_word": false,
      "lstrip": false,
      "rstrip": false,
      "normalized": false,
      "special": true
    },
    {
      "id": 1,
      "content": "<padding>",
      "single_word": false,
      "lstrip": false,
      "rstrip": false,
      "normalized": false,
      "special": true
    }
  ],
  "normalizer": null,
  "pre_tokenizer": {
    "type": "ByteLevel",
    "add_prefix_space": false,
    "trim_offsets": true,
    "use_regex": true
  },
  "post_processor": null,
  "decoder": {
    "type": "ByteLevel",
    "add_prefix_space": true,
    "trim_offsets": true,
    "use_regex": true
  },
  "model": {
    "type": "BPE",
    "dropout": null,
    "unk_token": null,
    "continuing_subword_prefix": null,
    "end_of_word_suffix": null,
    "fuse_unk": false,
    "byte_fallback": false,
    "ignore_merges": false,
    "vocab": {
      "<endoftext>": 0,
      "<padding>": 1,
      "!": 2,
      "\"": 3,
      "$": 4,
      "%": 5,
      "&": 6,
      "'": 7,
      "(": 8,
      ")": 9,
      "*": 10,
      "+": 11,
      ",": 12,
      "-": 13,
      ".": 14,
      "/": 15,
      "0": 16,
      "1": 17,
      "2": 18,
      "3": 19,
      "4": 20,
      "5": 21,
      "6": 22,
      "7": 23,
      "8": 24,
      "9": 25,
      ":": 26,
      ";": 27,
      "=": 28,
      "?": 29,
      "A": 30,
      "B": 31,
      "C": 32,
      "D": 33,
      "E": 34,
      "F": 35,
      "G": 36,
      "H": 37,
      "I": 38,
      "J": 39,
      "K": 40,
      "L": 41,
      "M": 42,
      "N": 43,
      "O": 44,
      "P": 45,
      "Q": 46,
      "R": 47,
      "S": 48,
      "T": 49,
      "U": 50,
      "V": 51,
      "W": 52,
      "X": 53,
      "Y": 54,
      "Z": 55,
      "_": 56,
      "`": 57,
      "a": 58,
      "b": 59,
      "c": 60,
      "d": 61,
      "e": 62,
      "f": 63,
      "g": 64,
      "h": 65,
      "i": 66,
      "j": 67,
      "k": 68,
      "l": 69,
      "m": 70,
      "n": 71,
      "o": 72,
      "p": 73,
      "q": 74,
      "r": 75,
      "s": 76,
      "t": 77,
      "u": 78,
      "v": 79,
      "w": 80,
      "x": 81,
      "y": 82,
      "z": 83,
      "¡": 84,
      "¢": 85,
      "£": 86,
      "¤": 87,
      "¦": 88,
      "§": 89,
      "¨": 90,
      "©": 91,
      "ª": 92,
      "«": 93,
      "¬": 94,
      "®": 95,
      "¯": 96,
      "°": 97,
      "±": 98,
      "²": 99,
      "³": 100,
      "´": 101,
      "µ": 102,
      "¶": 103,
      "¹": 104,
      "º": 105,
      "»": 106,
      "¼": 107,
      "½": 108,
      "¿": 109,
      "Â": 110,
      "Ã": 111,
      "Å": 112,
      "â": 113,
      "Ċ": 114,
      "Ġ": 115,
      "Ģ": 116,
      "ģ": 117,
      "Ĥ": 118,
      "ĥ": 119,
      "ĩ": 120,
      "Ī": 121,
      "ī": 122,
      "Ĭ": 123,
      "ĭ": 124,
      "į": 125,
      "ĵ": 126,
      "Ķ": 127,
      "ķ": 128,
      "ĺ": 129,
      "Ļ": 130,
      "ļ": 131,
      "Ľ": 132,
      "ľ": 133,
      "Ŀ": 134,
      "ł": 135,
      "Ń": 136,
      "Ġd": 137,
      "Ġa": 138,
      "Ġe": 139,
      "ra": 140,
      "os": 141,
      "Ġp": 142,
      "Ġc": 143,
      "qu": 144,
      "es": 145,
      "as": 146,
      "nt": 147,
      "Ġs": 148,
      "Ġm": 149,
      "Ġo": 150,
      "que": 151,
      "Ġde": 152,
      "Ã£": 153,
      "er": 154,
      "Ġn": 155,
      "Ã£o": 156,
      "Ġque": 157,
      "ar": 158,
      "or": 159,
      "is": 160,
      "ia": 161,
      "Ġt": 162,
      "do": 163,
      "in": 164,
      "Ġco": 165,
      "re": 166,
      "um": 167,
      "Ġf": 168,
      "da": 169,
      "Ã©": 170,
      "em": 171,
      "ta": 172,
      "Ã§": 173,
      "Ġv": 174,
      "Ã¡": 175,
      "en": 176,
      "de": 177,
      "ro": 178,
      "Ġum": 179,
      "lh": 180,
      "ent": 181,
      "Ġes": 182,
      "to": 183,
      "al": 184,
      "im": 185,
      "ei": 186,
      "se": 187,
      "an": 188,
      "Ġdo": 189,
      "Ġcom": 190,
      "Ġl": 191,
      "va": 192,
      "âĢ": 193,
      "ĠnÃ£o": 194,
      "ou": 195,
      "Ġse": 196,
      "ic": 197,
      "Ġda": 198,
      "ÃŃ": 199,
      "el": 200,
      "âĢĶ": 201,
      "am": 202,
      "ri": 203,
      "ara": 204,
      "..": 205,
      "Ġb": 206,
      "te": 207,
      "co": 208,
      "ĠÃ©": 209,
      "Ġas": 210,
      "Ġh": 211,
      "Ã§Ã£o": 212,
      "Ġou": 213,
      "gu": 214,
      "Ġos": 215,
      "ĠÃ": 216,
      "Ġno": 217,
      "Ġem": 218,
      "Ġre": 219,
      "us": 220,
      "ĠA": 221,
      "Ã³": 222,
      "la": 223,
      "le": 224,
      "ente": 225,
      "ci": 226,
      "Ġuma": 227,
      "res": 228,
      "on": 229,
      "Ġpor": 230,
      "Ġg": 231,
      "ida": 232,
      "ĠE": 233,
      "inh": 234,
      "Ãª": 235,
      "Ġna": 236,
      "ir": 237,
      "lhe": 238,
      "om": 239,
      "Ġal": 240,
      "Ġme": 241,
      "ais": 242,
      "Ġdes": 243,
      "Ġpara": 244,
      "ti": 245,
      "ec": 246,
      "ĠS": 247,
      "Ġpo": 248,
      "go": 249,
      "ĠC": 250,
      "Ġdi": 251,
      "Ġcon": 252,
      "tu": 253,
      "so": 254,
      "ca": 255,
      "Ã§a": 256,
      "sa": 257,
      "ĠÃł": 258,
      "ĠN": 259,
      "po": 260,
      "dos": 261,
      "un": 262,
      "ran": 263,
      "ĠD": 264,
      "lo": 265,
      "ras": 266,
      "Ġin": 267,
      "Ġqu": 268,
      "me": 269,
      "Ġao": 270,
      "ando": 271,
      "ĠO": 272,
      "Ġera": 273,
      "ant": 274,
      "ve": 275,
      "di": 276,
      "Ġmas": 277,
      "ĠâĢĶ": 278,
      "ĠM": 279,
      "Ġj": 280,
      "ma": 281,
      "ĠP": 282,
      "ai": 283,
      "Ġi": 284,
      "Ġmais": 285,
      "cia": 286,
      "inha": 287,
      "ria": 288,
      "ica": 289,
      "Ġout": 290,
      "mo": 291,
      "Ġsu": 292,
      "Ġca": 293,
      "Ġfo": 294,
      "Ġdis": 295,
      "ui": 296,
      "ver": 297,
      "ga": 298,
      "ol": 299,
      "Ġent": 300,
      "mente": 301,
      "Ġcomo": 302,
      "Ãµ": 303,
      "Ġdos": 304,
      "Ġex": 305,
      "pe": 306,
      "Ġpr": 307,
      "cu": 308,
      "Qu": 309,
      "ch": 310,
      "Ġam": 311,
      "nte": 312,
      "idade": 313,
      "Ġest": 314,
      "Ġto": 315,
      "Ãµes": 316,
      "das": 317,
      "ros": 318,
      "Ġser": 319,
      "ram": 320,
      "az": 321,
      "io": 322,
      "ce": 323,
      "Ġch": 324,
      "enh": 325,
      "Ġpro": 326,
      "Ġcas": 327,
      "ento": 328,
      "Ġper": 329,
      "il": 330,
      "Ġmo": 331,
      "Ġpar": 332,
      "Ġsem": 333,
      "Ãº": 334,
      "Ġap": 335,
      "at": 336,
      "Ġele": 337,
      "Ã©m": 338,
      "Ġtem": 339,
      "...": 340,
      "ez": 341,
      "Ãªn": 342,
      "ĠNÃ£o": 343,
      "tas": 344,
      "Ġlhe": 345,
      "Ġvi": 346,
      "ĠT": 347,
      "Ġver": 348,
      "Ġan": 349,
      "ado": 350,
      "tos": 351,
      "Ġsa": 352,
      "Ġesta": 353,
      "Ġcont": 354,
      "Ġeu": 355,
      "Ġmes": 356,
      "Ġres": 357,
      "ul": 358,
      "rio": 359,
      "ĠV": 360,
      "Ġen": 361,
      "des": 362,
      "vi": 363,
      "ava": 364,
      "dia": 365,
      "vo": 366,
      "av": 367,
      "Ġdas": 368,
      "ela": 369,
      "Ġnos": 370,
      "dade": 371,
      "Ġar": 372,
      "Ġim": 373,
      "ens": 374,
      "eiro": 375,
      "Ġter": 376,
      "ist": 377,
      "Ġfoi": 378,
      "gum": 379,
      "ĠF": 380,
      "Ġesp": 381,
      "Ã§o": 382,
      "Ġat": 383,
      "Ġmui": 384,
      "Ġtu": 385,
      "be": 386,
      "ru": 387,
      "ico": 388,
      "ĠR": 389,
      "Ġdiz": 390,
      "st": 391,
      "Ġpe": 392,
      "Ġpre": 393,
      "endo": 394,
      "no": 395,
      "ĠL": 396,
      "Ã§Ãµes": 397,
      "ĠhÃ¡": 398,
      "Ġfi": 399,
      "ĠJ": 400,
      "lho": 401,
      "Ġnem": 402,
      "ĠQu": 403,
      "pre": 404,
      "dor": 405,
      "Ġdisse": 406,
      "ira": 407,
      "lhos": 408,
      "na": 409,
      "Ġab": 410,
      "Ġle": 411,
      "Ġcois": 412,
      "ĠB": 413,
      "Ġcor": 414,
      "Ġfaz": 415,
      "....": 416,
      "tar": 417,
      "li": 418,
      "Ġalgum": 419,
      "Ġpas": 420,
      "Ġfal": 421,
      "Ġli": 422,
      "vel": 423,
      "Ġpa": 424,
      "ina": 425,
      "Ġtra": 426,
      "ece": 427,
      "Ġint": 428,
      "inda": 429,
      "Ġso": 430,
      "Ã´": 431,
      "lha": 432,
      "les": 433,
      "eira": 434,
      "con": 435,
      "Ġass": 436,
      "Ġte": 437,
      "pos": 438,
      "tor": 439,
      "qui": 440,
      "Ġcar": 441,
      "Ãªncia": 442,
      "gar": 443,
      "anh": 444,
      "ora": 445,
      "Ġvez": 446,
      "ter": 447,
      "rou": 448,
      "Ġac": 449,
      "bre": 450,
      "Ġdia": 451,
      "Ġra": 452,
      "eito": 453,
      "ĠG": 454,
      "pois": 455,
      "Ġhom": 456,
      "Ġela": 457,
      "ita": 458,
      "Ġis": 459,
      "nto": 460,
      "ura": 461,
      "der": 462,
      "ĠsÃ³": 463,
      "ess": 464,
      "cio": 465,
      "anto": 466,
      "ntes": 467,
      "ĠH": 468,
      "Ġfor": 469,
      "Ġprim": 470,
      "ag": 471,
      "tou": 472,
      "eio": 473,
      "Ġainda": 474,
      "bra": 475,
      "iz": 476,
      "ĠI": 477,
      "Ġcasa": 478,
      "Ã¢": 479,
      "gun": 480,
      "igo": 481,
      "esse": 482,
      "Ġmen": 483,
      "Ġtempo": 484,
      "ada": 485,
      "tra": 486,
      "ido": 487,
      "elo": 488,
      "amb": 489,
      "Ġmor": 490,
      "lia": 491,
      "com": 492,
      "Ġpou": 493,
      "tura": 494,
      "Ġvo": 495,
      "ĠjÃ¡": 496,
      "Ġoutro": 497,
      "ba": 498,
      "pres": 499,
      "cl": 500,
      "Ġmuito": 501,
      "por": 502,
      "fer": 503,
      "Ġtudo": 504,
      "ja": 505,
      "Ġquando": 506,
      "pl": 507,
      "ix": 508,
      "Ġseu": 509,
      "ig": 510,
      "Ġesc": 511,
      "Ġcoisa": 512,
      "ĠEs": 513,
      "ur": 514,
      "Ġentre": 515,
      "Ġdepois": 516,
      "eg": 517,
      "iam": 518,
      "Ġir": 519,
      "Ġmar": 520,
      "Ġtr": 521,
      "vam": 522,
      "pa": 523,
      "Ġdu": 524,
      "ĠtÃ£o": 525,
      "ima": 526,
      "ias": 527,
      "ambÃ©m": 528,
      "Ġpal": 529,
      "Ġsent": 530,
      "Ġolhos": 531,
      "ber": 532,
      "Ġmesmo": 533,
      "du": 534,
      "per": 535,
      "Ġmeu": 536,
      "tes": 537,
      "Ġgran": 538,
      "Ġlu": 539,
      "Ġnada": 540,
      "Ġpos": 541,
      "Ġaos": 542,
      "Ġoutra": 543,
      "Ġsua": 544,
      "raÃ§Ã£o": 545,
      "Ġcons": 546,
      "Ġach": 547,
      "iÃ£o": 548,
      "Ġtal": 549,
      "Ġbo": 550,
      "Ã¡rio": 551,
      "ĠSr": 552,
      "cer": 553,
      "Ġtinha": 554,
      "bl": 555,
      "cas": 556,
      "pon": 557,
      "Ġeste": 558,
      "Ãªs": 559,
      "par": 560,
      "esso": 561,
      "ito": 562,
      "Ġcer": 563,
      "Ġob": 564,
      "aria": 565,
      "nta": 566,
      "Ġminha": 567,
      "ena": 568,
      "nde": 569,
      "Ġhomem": 570,
      "ĠlÃ¡": 571,
      "ĠÃłs": 572,
      "uma": 573,
      "Ġnas": 574,
      "dÃ©": 575,
      "aix": 576,
      "Ġdois": 577,
      "Ġsi": 578,
      "imento": 579,
      "ge": 580,
      "gora": 581,
      "ndo": 582,
      "ÃŃs": 583,
      "ĠMas": 584,
      "Ġsenh": 585,
      "Ġve": 586,
      "esta": 587,
      "deu": 588,
      "Ġdeix": 589,
      "Ã¡s": 590,
      "ĠsÃ£o": 591,
      "inu": 592,
      "ista": 593,
      "las": 594,
      "Ã§as": 595,
      "ĠDe": 596,
      "osa": 597,
      "ĠatÃ©": 598,
      "Ġtodos": 599,
      "Ġmu": 600,
      "Ġporque": 601,
      "ĠtambÃ©m": 602,
      "entos": 603,
      "NÃ£o": 604,
      "rim": 605,
      "Ġseus": 606,
      "Ġverdade": 607,
      "via": 608,
      "Ġaf": 609,
      "za": 610,
      "indo": 611,
      "Ġbem": 612,
      "ĠmÃ£": 613,
      "Ġestava": 614,
      "ĠU": 615,
      "Ġvida": 616,
      "Ã³p": 617,
      "Ġinter": 618,
      "âĢľ": 619,
      "Ġpalav": 620,
      "Ġdizer": 621,
      "rar": 622,
      "bo": 623,
      "Ġcomp": 624,
      "ĠÃº": 625,
      "Ġro": 626,
      "amos": 627,
      "Ġpouco": 628,
      "Ãį": 629,
      "undo": 630,
      "cont": 631,
      "Ġr": 632,
      "gra": 633,
      "Ġmenos": 634,
      "inho": 635,
      "pi": 636,
      "Ġti": 637,
      "rito": 638,
      "ĠestÃ¡": 639,
      "eta": 640,
      "sos": 641,
      "CA": 642,
      "emos": 643,
      "Ġpode": 644,
      "ĠÃī": 645,
      "amente": 646,
      "jo": 647,
      "ores": 648,
      "Ġnoi": 649,
      "Ġassim": 650,
      "oso": 651,
      "Ġfa": 652,
      "iu": 653,
      "je": 654,
      "Ġfic": 655,
      "Ġsim": 656,
      "Ġmal": 657,
      "Ġins": 658,
      "Ġgra": 659,
      "Ġespe": 660,
      "car": 661,
      "Ġpela": 662,
      "quele": 663,
      "Ġman": 664,
      "Ã¢n": 665,
      "aram": 666,
      "Ġgrande": 667,
      "guns": 668,
      "Ġaca": 669,
      "dar": 670,
      "........": 671,
      "lher": 672,
      "cis": 673,
      "Ã³s": 674,
      "Ġlo": 675,
      "Ġconf": 676,
      "era": 677,
      "Ġvol": 678,
      "Ġho": 679,
      "Ġduas": 680,
      "lÃŃ": 681,
      "âĢĿ": 682,
      "sÃ£o": 683,
      "Ġ(": 684,
      "ab": 685,
      "mas": 686,
      "Ġaqui": 687,
      "quela": 688,
      "ingu": 689,
      "Ġsol": 690,
      "tic": 691,
      "Ġau": 692,
      "Ġpodia": 693,
      "Ġpelo": 694,
      "Ġalguma": 695,
      "Ġsal": 696,
      "cor": 697,
      "ĠidÃ©": 698,
      "Ġisso": 699,
      "Ġpres": 700,
      "Ġagora": 701,
      "tava": 702,
      "Ã³ria": 703,
      "tica": 704,
      "est": 705,
      "rios": 706,
      "Ġanos": 707,
      "orn": 708,
      "Ġliv": 709,
      "Ġma": 710,
      "dem": 711,
      "mos": 712,
      "ĠQue": 713,
      "Ġamor": 714,
      "Ġpu": 715,
      "para": 716,
      "Ġoutros": 717,
      "vez": 718,
      "LO": 719,
      "Ġ1": 720,
      "ÃŃvel": 721,
      "Ġad": 722,
      "sas": 723,
      "los": 724,
      "ĠprÃ³p": 725,
      "Ġcam": 726,
      "Ġlon": 727,
      "enta": 728,
      "Ġpesso": 729,
      "Ġali": 730,
      "ana": 731,
      "osse": 732,
      "Ġalguns": 733,
      "amento": 734,
      "Ġmelh": 735,
      "Que": 736,
      "atro": 737,
      "tado": 738,
      "imo": 739,
      "Ġisto": 740,
      "Ġru": 741,
      "Ġlei": 742,
      "Ġcu": 743,
      "cias": 744,
      "ino": 745,
      "Ġquem": 746,
      "ĠSe": 747,
      "rei": 748,
      "Ġdar": 749,
      "Ġonde": 750,
      "rer": 751,
      "tÃ¡": 752,
      "Ġfazer": 753,
      "Ġpergu": 754,
      "Ġdias": 755,
      "Ġqual": 756,
      "nos": 757,
      "Ġia": 758,
      "ecia": 759,
      "emb": 760,
      "AR": 761,
      "ĠpÃ©": 762,
      "ĠCom": 763,
      "vas": 764,
      "Ġsobre": 765,
      "lar": 766,
      "pÃ©": 767,
      "Ġun": 768,
      "enas": 769,
      "De": 770,
      "ost": 771,
      "ior": 772,
      "Ġpass": 773,
      "ĠEu": 774,
      "sem": 775,
      "avia": 776,
      "ĠOs": 777,
      "Ġesse": 778,
      "Ġrespon": 779,
      "pro": 780,
      "lt": 781,
      "ÃŃn": 782,
      "for": 783,
      "cre": 784,
      "Ġnoite": 785,
      "Ġolh": 786,
      "Ġantes": 787,
      "enho": 788,
      "fic": 789,
      "Ġcal": 790,
      "Ġeram": 791,
      "vos": 792,
      "Ġsuas": 793,
      "Ġmelhor": 794,
      "ante": 795,
      "ĠentÃ£o": 796,
      "Ġacab": 797,
      "ĠmÃ£o": 798,
      "Ġnome": 799,
      "Ġche": 800,
      "Ġju": 801,
      "Ã´n": 802,
      "TU": 803,
      "Ġsei": 804,
      "onh": 805,
      "iÃ§Ã£o": 806,
      "Ġtodas": 807,
      "Ġmesma": 808,
      "Ġmim": 809,
      "eceu": 810,
      "almente": 811,
      "Ġcria": 812,
      "Ġor": 813,
      "gre": 814,
      "unca": 815,
      "este": 816,
      "Ġfez": 817,
      "Ġmulher": 818,
      "ĠEra": 819,
      "ĠAs": 820,
      "ĠâĢľ": 821,
      "Ġparte": 822,
      "su": 823,
      "ĠcoraÃ§Ã£o": 824,
      "Ġpassa": 825,
      "PÃį": 826,
      "TULO": 827,
      "et": 828,
      "Ġcham": 829,
      "PÃįTULO": 830,
      "lu": 831,
      "ano": 832,
      "Ġleva": 833,
      "Ġcoisas": 834,
      "Ġvis": 835,
      "ecer": 836,
      "CAPÃįTULO": 837,
      "ĠespÃŃ": 838,
      "ĠEst": 839,
      "ntou": 840,
      "eiros": 841,
      "nÃ§a": 842,
      "pu": 843,
      "usa": 844,
      "rias": 845,
      "ĠpolÃŃ": 846,
      "Ġfosse": 847,
      "Ãºbl": 848,
      "Ġtoda": 849,
      "Ġmeio": 850,
      "fÃŃ": 851,
      "gua": 852,
      "Ġcabe": 853,
      "Ġlogo": 854,
      "Ġprecis": 855,
      "Ġvezes": 856,
      "ĠidÃ©ia": 857,
      "Ã§os": 858,
      "Ġsempre": 859,
      "cos": 860,
      "tiva": 861,
      "asse": 862,
      "Ġouvi": 863,
      "gi": 864,
      "nÃ£o": 865,
      "Ã¼": 866,
      "ĠtrÃªs": 867,
      "tamente": 868,
      "ĠmoÃ§a": 869,
      "val": 870,
      "Es": 871,
      "iste": 872,
      "au": 873,
      "ad": 874,
      "pel": 875,
      "Ġessa": 876,
      "Ġconh": 877,
      "aÃ§Ã£o": 878,
      "culo": 879,
      "ide": 880,
      "Ã¡vel": 881,
      "Ġalma": 882,
      "ensa": 883,
      "eu": 884,
      "ves": 885,
      "Ġporta": 886,
      "ĠPo": 887,
      "ÃŃlia": 888,
      "tural": 889,
      "sim": 890,
      "tÃŃ": 891,
      "Ġpalavras": 892,
      "II": 893,
      "var": 894,
      "ser": 895,
      "quer": 896,
      "Ġdele": 897,
      "ero": 898,
      "Ġsegu": 899,
      "ĠÃºlt": 900,
      "Ġgu": 901,
      "bi": 902,
      "mes": 903,
      "Com": 904,
      "Ġvai": 905,
      "Ġfl": 906,
      "ex": 907,
      "reio": 908,
      "tivo": 909,
      "Ġoutras": 910,
      "Ġval": 911,
      "Ġcaso": 912,
      "Ġtom": 913,
      "Ġfu": 914,
      "ĠAl": 915,
      "ĠÃ¡": 916,
      "Ġdeu": 917,
      "Ġpra": 918,
      "Ġvir": 919,
      "Ġhavia": 920,
      "Ġautor": 921,
      "Ġbon": 922,
      "Ġrece": 923,
      "Ġfora": 924,
      "Ġraz": 925,
      "enÃ§a": 926,
      "Ġprin": 927,
      "ĠpÃ¡": 928,
      "Ġdef": 929,
      "paz": 930,
      "gem": 931,
      "Ġtran": 932,
      "elos": 933,
      "inguÃ©m": 934,
      "Ġsom": 935,
      "Ġsenhor": 936,
      "Ġsimp": 937,
      "ĠespÃŃrito": 938,
      "tre": 939,
      "Ġpoeta": 940,
      "oi": 941,
      "Ã©u": 942,
      "Ġpens": 943,
      "Ġapar": 944,
      "Ġamigo": 945,
      "Ġtodo": 946,
      "Ġprimeiro": 947,
      "ris": 948,
      "ĠRu": 949,
      "elas": 950,
      "udo": 951,
      "Ġant": 952,
      "Ġprimeira": 953,
      "titu": 954,
      "Ġescre": 955,
      "dÃ£o": 956,
      "Ġmundo": 957,
      "Ġfim": 958,
      "Ġcome": 959,
      "Ġsab": 960,
      "gos": 961,
      "rando": 962,
      "Ġsor": 963,
      "qÃ¼": 964,
      "pera": 965,
      "Ġpai": 966,
      "ĠcabeÃ§a": 967,
      "entes": 968,
      "lhas": 969,
      "Ġgos": 970,
      "Ġri": 971,
      "ĠmÃ£e": 972,
      "Ġtar": 973,
      "dio": 974,
      "vol": 975,
      "Ġnenh": 976,
      "int": 977,
      "ĠpÃ´": 978,
      "Ġgente": 979,
      "ha": 980,
      "ĠmÃ£os": 981,
      "ĠsÃ©": 982,
      "comp": 983,
      "Ġsegun": 984,
      "Ãªm": 985,
      "Ġalgumas": 986,
      "Ġcarta": 987,
      "RO": 988,
      "Ġeles": 989,
      "ĠEm": 990,
      "enÃ§Ã£o": 991,
      "Ġcerto": 992,
      "ende": 993,
      "eita": 994,
      "ele": 995,
      "Ġemb": 996,
      "fia": 997,
      "Ġinf": 998,
      "Ġhomens": 999
    },
    "merges": [
      [
        "Ġ",
        "d"
      ],
      [
        "Ġ",
        "a"
      ],
      [
        "Ġ",
        "e"
      ],
      [
        "r",
        "a"
      ],
      [
        "o",
        "s"
      ],
      [
        "Ġ",
        "p"
      ],
      [
        "Ġ",
        "c"
      ],
      [
        "q",
        "u"
      ],
      [
        "e",
        "s"
      ],
      [
        "a",
        "s"
      ],
      [
        "n",
        "t"
      ],
      [
        "Ġ",
        "s"
      ],
      [
        "Ġ",
        "m"
      ],
      [
        "Ġ",
        "o"
      ],
      [
        "qu",
        "e"
      ],
      [
        "Ġd",
        "e"
      ],
      [
        "Ã",
        "£"
      ],
      [
        "e",
        "r"
      ],
      [
        "Ġ",
        "n"
      ],
      [
        "Ã£",
        "o"
      ],
      [
        "Ġ",
        "que"
      ],
      [
        "a",
        "r"
      ],
      [
        "o",
        "r"
      ],
      [
        "i",
        "s"
      ],
      [
        "i",
        "a"
      ],
      [
        "Ġ",
        "t"
      ],
      [
        "d",
        "o"
      ],
      [
        "i",
        "n"
      ],
      [
        "Ġc",
        "o"
      ],
      [
        "r",
        "e"
      ],
      [
        "u",
        "m"
      ],
      [
        "Ġ",
        "f"
      ],
      [
        "d",
        "a"
      ],
      [
        "Ã",
        "©"
      ],
      [
        "e",
        "m"
      ],
      [
        "t",
        "a"
      ],
      [
        "Ã",
        "§"
      ],
      [
        "Ġ",
        "v"
      ],
      [
        "Ã",
        "¡"
      ],
      [
        "e",
        "n"
      ],
      [
        "d",
        "e"
      ],
      [
        "r",
        "o"
      ],
      [
        "Ġ",
        "um"
      ],
      [
        "l",
        "h"
      ],
      [
        "e",
        "nt"
      ],
      [
        "Ġe",
        "s"
      ],
      [
        "t",
        "o"
      ],
      [
        "a",
        "l"
      ],
      [
        "i",
        "m"
      ],
      [
        "e",
        "i"
      ],
      [
        "s",
        "e"
      ],
      [
        "a",
        "n"
      ],
      [
        "Ġd",
        "o"
      ],
      [
        "Ġco",
        "m"
      ],
      [
        "Ġ",
        "l"
      ],
      [
        "v",
        "a"
      ],
      [
        "â",
        "Ģ"
      ],
      [
        "Ġn",
        "Ã£o"
      ],
      [
        "o",
        "u"
      ],
      [
        "Ġs",
        "e"
      ],
      [
        "i",
        "c"
      ],
      [
        "Ġd",
        "a"
      ],
      [
        "Ã",
        "Ń"
      ],
      [
        "e",
        "l"
      ],
      [
        "âĢ",
        "Ķ"
      ],
      [
        "a",
        "m"
      ],
      [
        "r",
        "i"
      ],
      [
        "a",
        "ra"
      ],
      [
        ".",
        "."
      ],
      [
        "Ġ",
        "b"
      ],
      [
        "t",
        "e"
      ],
      [
        "c",
        "o"
      ],
      [
        "Ġ",
        "Ã©"
      ],
      [
        "Ġa",
        "s"
      ],
      [
        "Ġ",
        "h"
      ],
      [
        "Ã§",
        "Ã£o"
      ],
      [
        "Ġo",
        "u"
      ],
      [
        "g",
        "u"
      ],
      [
        "Ġ",
        "os"
      ],
      [
        "Ġ",
        "Ã"
      ],
      [
        "Ġn",
        "o"
      ],
      [
        "Ġe",
        "m"
      ],
      [
        "Ġ",
        "re"
      ],
      [
        "u",
        "s"
      ],
      [
        "Ġ",
        "A"
      ],
      [
        "Ã",
        "³"
      ],
      [
        "l",
        "a"
      ],
      [
        "l",
        "e"
      ],
      [
        "ent",
        "e"
      ],
      [
        "c",
        "i"
      ],
      [
        "Ġum",
        "a"
      ],
      [
        "r",
        "es"
      ],
      [
        "o",
        "n"
      ],
      [
        "Ġp",
        "or"
      ],
      [
        "Ġ",
        "g"
      ],
      [
        "i",
        "da"
      ],
      [
        "Ġ",
        "E"
      ],
      [
        "in",
        "h"
      ],
      [
        "Ã",
        "ª"
      ],
      [
        "Ġn",
        "a"
      ],
      [
        "i",
        "r"
      ],
      [
        "lh",
        "e"
      ],
      [
        "o",
        "m"
      ],
      [
        "Ġa",
        "l"
      ],
      [
        "Ġm",
        "e"
      ],
      [
        "a",
        "is"
      ],
      [
        "Ġd",
        "es"
      ],
      [
        "Ġp",
        "ara"
      ],
      [
        "t",
        "i"
      ],
      [
        "e",
        "c"
      ],
      [
        "Ġ",
        "S"
      ],
      [
        "Ġp",
        "o"
      ],
      [
        "g",
        "o"
      ],
      [
        "Ġ",
        "C"
      ],
      [
        "Ġd",
        "i"
      ],
      [
        "Ġco",
        "n"
      ],
      [
        "t",
        "u"
      ],
      [
        "s",
        "o"
      ],
      [
        "c",
        "a"
      ],
      [
        "Ã§",
        "a"
      ],
      [
        "s",
        "a"
      ],
      [
        "ĠÃ",
        "ł"
      ],
      [
        "Ġ",
        "N"
      ],
      [
        "p",
        "o"
      ],
      [
        "d",
        "os"
      ],
      [
        "u",
        "n"
      ],
      [
        "ra",
        "n"
      ],
      [
        "Ġ",
        "D"
      ],
      [
        "l",
        "o"
      ],
      [
        "ra",
        "s"
      ],
      [
        "Ġ",
        "in"
      ],
      [
        "Ġ",
        "qu"
      ],
      [
        "m",
        "e"
      ],
      [
        "Ġa",
        "o"
      ],
      [
        "an",
        "do"
      ],
      [
        "Ġ",
        "O"
      ],
      [
        "Ġe",
        "ra"
      ],
      [
        "a",
        "nt"
      ],
      [
        "v",
        "e"
      ],
      [
        "d",
        "i"
      ],
      [
        "Ġm",
        "as"
      ],
      [
        "Ġ",
        "âĢĶ"
      ],
      [
        "Ġ",
        "M"
      ],
      [
        "Ġ",
        "j"
      ],
      [
        "m",
        "a"
      ],
      [
        "Ġ",
        "P"
      ],
      [
        "a",
        "i"
      ],
      [
        "Ġ",
        "i"
      ],
      [
        "Ġm",
        "ais"
      ],
      [
        "c",
        "ia"
      ],
      [
        "inh",
        "a"
      ],
      [
        "r",
        "ia"
      ],
      [
        "ic",
        "a"
      ],
      [
        "Ġou",
        "t"
      ],
      [
        "m",
        "o"
      ],
      [
        "Ġs",
        "u"
      ],
      [
        "Ġc",
        "a"
      ],
      [
        "Ġf",
        "o"
      ],
      [
        "Ġd",
        "is"
      ],
      [
        "u",
        "i"
      ],
      [
        "v",
        "er"
      ],
      [
        "g",
        "a"
      ],
      [
        "o",
        "l"
      ],
      [
        "Ġe",
        "nt"
      ],
      [
        "m",
        "ente"
      ],
      [
        "Ġcom",
        "o"
      ],
      [
        "Ã",
        "µ"
      ],
      [
        "Ġd",
        "os"
      ],
      [
        "Ġe",
        "x"
      ],
      [
        "p",
        "e"
      ],
      [
        "Ġp",
        "r"
      ],
      [
        "c",
        "u"
      ],
      [
        "Q",
        "u"
      ],
      [
        "c",
        "h"
      ],
      [
        "Ġa",
        "m"
      ],
      [
        "nt",
        "e"
      ],
      [
        "ida",
        "de"
      ],
      [
        "Ġes",
        "t"
      ],
      [
        "Ġt",
        "o"
      ],
      [
        "Ãµ",
        "es"
      ],
      [
        "d",
        "as"
      ],
      [
        "r",
        "os"
      ],
      [
        "Ġs",
        "er"
      ],
      [
        "ra",
        "m"
      ],
      [
        "a",
        "z"
      ],
      [
        "i",
        "o"
      ],
      [
        "c",
        "e"
      ],
      [
        "Ġc",
        "h"
      ],
      [
        "en",
        "h"
      ],
      [
        "Ġp",
        "ro"
      ],
      [
        "Ġc",
        "as"
      ],
      [
        "ent",
        "o"
      ],
      [
        "Ġp",
        "er"
      ],
      [
        "i",
        "l"
      ],
      [
        "Ġm",
        "o"
      ],
      [
        "Ġp",
        "ar"
      ],
      [
        "Ġs",
        "em"
      ],
      [
        "Ã",
        "º"
      ],
      [
        "Ġa",
        "p"
      ],
      [
        "a",
        "t"
      ],
      [
        "Ġe",
        "le"
      ],
      [
        "Ã©",
        "m"
      ],
      [
        "Ġt",
        "em"
      ],
      [
        "..",
        "."
      ],
      [
        "e",
        "z"
      ],
      [
        "Ãª",
        "n"
      ],
      [
        "ĠN",
        "Ã£o"
      ],
      [
        "t",
        "as"
      ],
      [
        "Ġ",
        "lhe"
      ],
      [
        "Ġv",
        "i"
      ],
      [
        "Ġ",
        "T"
      ],
      [
        "Ġv",
        "er"
      ],
      [
        "Ġa",
        "n"
      ],
      [
        "a",
        "do"
      ],
      [
        "t",
        "os"
      ],
      [
        "Ġs",
        "a"
      ],
      [
        "Ġes",
        "ta"
      ],
      [
        "Ġco",
        "nt"
      ],
      [
        "Ġe",
        "u"
      ],
      [
        "Ġm",
        "es"
      ],
      [
        "Ġ",
        "res"
      ],
      [
        "u",
        "l"
      ],
      [
        "ri",
        "o"
      ],
      [
        "Ġ",
        "V"
      ],
      [
        "Ġe",
        "n"
      ],
      [
        "d",
        "es"
      ],
      [
        "v",
        "i"
      ],
      [
        "a",
        "va"
      ],
      [
        "d",
        "ia"
      ],
      [
        "v",
        "o"
      ],
      [
        "a",
        "v"
      ],
      [
        "Ġd",
        "as"
      ],
      [
        "el",
        "a"
      ],
      [
        "Ġn",
        "os"
      ],
      [
        "da",
        "de"
      ],
      [
        "Ġa",
        "r"
      ],
      [
        "Ġ",
        "im"
      ],
      [
        "en",
        "s"
      ],
      [
        "ei",
        "ro"
      ],
      [
        "Ġt",
        "er"
      ],
      [
        "is",
        "t"
      ],
      [
        "Ġfo",
        "i"
      ],
      [
        "g",
        "um"
      ],
      [
        "Ġ",
        "F"
      ],
      [
        "Ġes",
        "p"
      ],
      [
        "Ã§",
        "o"
      ],
      [
        "Ġa",
        "t"
      ],
      [
        "Ġm",
        "ui"
      ],
      [
        "Ġt",
        "u"
      ],
      [
        "b",
        "e"
      ],
      [
        "r",
        "u"
      ],
      [
        "ic",
        "o"
      ],
      [
        "Ġ",
        "R"
      ],
      [
        "Ġdi",
        "z"
      ],
      [
        "s",
        "t"
      ],
      [
        "Ġp",
        "e"
      ],
      [
        "Ġp",
        "re"
      ],
      [
        "en",
        "do"
      ],
      [
        "n",
        "o"
      ],
      [
        "Ġ",
        "L"
      ],
      [
        "Ã§",
        "Ãµes"
      ],
      [
        "Ġh",
        "Ã¡"
      ],
      [
        "Ġf",
        "i"
      ],
      [
        "Ġ",
        "J"
      ],
      [
        "lh",
        "o"
      ],
      [
        "Ġn",
        "em"
      ],
      [
        "Ġ",
        "Qu"
      ],
      [
        "p",
        "re"
      ],
      [
        "d",
        "or"
      ],
      [
        "Ġdis",
        "se"
      ],
      [
        "i",
        "ra"
      ],
      [
        "lh",
        "os"
      ],
      [
        "n",
        "a"
      ],
      [
        "Ġa",
        "b"
      ],
      [
        "Ġl",
        "e"
      ],
      [
        "Ġco",
        "is"
      ],
      [
        "Ġ",
        "B"
      ],
      [
        "Ġc",
        "or"
      ],
      [
        "Ġf",
        "az"
      ],
      [
        "..",
        ".."
      ],
      [
        "t",
        "ar"
      ],
      [
        "l",
        "i"
      ],
      [
        "Ġal",
        "gum"
      ],
      [
        "Ġp",
        "as"
      ],
      [
        "Ġf",
        "al"
      ],
      [
        "Ġl",
        "i"
      ],
      [
        "v",
        "el"
      ],
      [
        "Ġp",
        "a"
      ],
      [
        "in",
        "a"
      ],
      [
        "Ġt",
        "ra"
      ],
      [
        "ec",
        "e"
      ],
      [
        "Ġi",
        "nt"
      ],
      [
        "in",
        "da"
      ],
      [
        "Ġs",
        "o"
      ],
      [
        "Ã",
        "´"
      ],
      [
        "lh",
        "a"
      ],
      [
        "l",
        "es"
      ],
      [
        "ei",
        "ra"
      ],
      [
        "co",
        "n"
      ],
      [
        "Ġas",
        "s"
      ],
      [
        "Ġt",
        "e"
      ],
      [
        "p",
        "os"
      ],
      [
        "t",
        "or"
      ],
      [
        "qu",
        "i"
      ],
      [
        "Ġc",
        "ar"
      ],
      [
        "Ãªn",
        "cia"
      ],
      [
        "g",
        "ar"
      ],
      [
        "an",
        "h"
      ],
      [
        "o",
        "ra"
      ],
      [
        "Ġv",
        "ez"
      ],
      [
        "t",
        "er"
      ],
      [
        "ro",
        "u"
      ],
      [
        "Ġa",
        "c"
      ],
      [
        "b",
        "re"
      ],
      [
        "Ġd",
        "ia"
      ],
      [
        "Ġ",
        "ra"
      ],
      [
        "ei",
        "to"
      ],
      [
        "Ġ",
        "G"
      ],
      [
        "po",
        "is"
      ],
      [
        "Ġh",
        "om"
      ],
      [
        "Ġe",
        "la"
      ],
      [
        "i",
        "ta"
      ],
      [
        "Ġ",
        "is"
      ],
      [
        "nt",
        "o"
      ],
      [
        "u",
        "ra"
      ],
      [
        "d",
        "er"
      ],
      [
        "Ġs",
        "Ã³"
      ],
      [
        "es",
        "s"
      ],
      [
        "ci",
        "o"
      ],
      [
        "ant",
        "o"
      ],
      [
        "nt",
        "es"
      ],
      [
        "Ġ",
        "H"
      ],
      [
        "Ġf",
        "or"
      ],
      [
        "Ġpr",
        "im"
      ],
      [
        "a",
        "g"
      ],
      [
        "to",
        "u"
      ],
      [
        "ei",
        "o"
      ],
      [
        "Ġa",
        "inda"
      ],
      [
        "b",
        "ra"
      ],
      [
        "i",
        "z"
      ],
      [
        "Ġ",
        "I"
      ],
      [
        "Ġcas",
        "a"
      ],
      [
        "Ã",
        "¢"
      ],
      [
        "gu",
        "n"
      ],
      [
        "i",
        "go"
      ],
      [
        "es",
        "se"
      ],
      [
        "Ġm",
        "en"
      ],
      [
        "Ġtem",
        "po"
      ],
      [
        "a",
        "da"
      ],
      [
        "t",
        "ra"
      ],
      [
        "i",
        "do"
      ],
      [
        "el",
        "o"
      ],
      [
        "am",
        "b"
      ],
      [
        "Ġm",
        "or"
      ],
      [
        "l",
        "ia"
      ],
      [
        "co",
        "m"
      ],
      [
        "Ġp",
        "ou"
      ],
      [
        "tu",
        "ra"
      ],
      [
        "Ġv",
        "o"
      ],
      [
        "Ġj",
        "Ã¡"
      ],
      [
        "Ġout",
        "ro"
      ],
      [
        "b",
        "a"
      ],
      [
        "p",
        "res"
      ],
      [
        "c",
        "l"
      ],
      [
        "Ġmui",
        "to"
      ],
      [
        "p",
        "or"
      ],
      [
        "f",
        "er"
      ],
      [
        "Ġtu",
        "do"
      ],
      [
        "j",
        "a"
      ],
      [
        "Ġqu",
        "ando"
      ],
      [
        "p",
        "l"
      ],
      [
        "i",
        "x"
      ],
      [
        "Ġse",
        "u"
      ],
      [
        "i",
        "g"
      ],
      [
        "Ġes",
        "c"
      ],
      [
        "Ġcois",
        "a"
      ],
      [
        "ĠE",
        "s"
      ],
      [
        "u",
        "r"
      ],
      [
        "Ġent",
        "re"
      ],
      [
        "Ġde",
        "pois"
      ],
      [
        "e",
        "g"
      ],
      [
        "ia",
        "m"
      ],
      [
        "Ġ",
        "ir"
      ],
      [
        "Ġm",
        "ar"
      ],
      [
        "Ġt",
        "r"
      ],
      [
        "va",
        "m"
      ],
      [
        "p",
        "a"
      ],
      [
        "Ġd",
        "u"
      ],
      [
        "Ġt",
        "Ã£o"
      ],
      [
        "im",
        "a"
      ],
      [
        "i",
        "as"
      ],
      [
        "amb",
        "Ã©m"
      ],
      [
        "Ġp",
        "al"
      ],
      [
        "Ġs",
        "ent"
      ],
      [
        "Ġo",
        "lhos"
      ],
      [
        "b",
        "er"
      ],
      [
        "Ġmes",
        "mo"
      ],
      [
        "d",
        "u"
      ],
      [
        "p",
        "er"
      ],
      [
        "Ġme",
        "u"
      ],
      [
        "t",
        "es"
      ],
      [
        "Ġg",
        "ran"
      ],
      [
        "Ġl",
        "u"
      ],
      [
        "Ġna",
        "da"
      ],
      [
        "Ġp",
        "os"
      ],
      [
        "Ġa",
        "os"
      ],
      [
        "Ġout",
        "ra"
      ],
      [
        "Ġsu",
        "a"
      ],
      [
        "ra",
        "Ã§Ã£o"
      ],
      [
        "Ġcon",
        "s"
      ],
      [
        "Ġa",
        "ch"
      ],
      [
        "i",
        "Ã£o"
      ],
      [
        "Ġt",
        "al"
      ],
      [
        "Ġb",
        "o"
      ],
      [
        "Ã¡",
        "rio"
      ],
      [
        "ĠS",
        "r"
      ],
      [
        "c",
        "er"
      ],
      [
        "Ġt",
        "inha"
      ],
      [
        "b",
        "l"
      ],
      [
        "c",
        "as"
      ],
      [
        "p",
        "on"
      ],
      [
        "Ġes",
        "te"
      ],
      [
        "Ãª",
        "s"
      ],
      [
        "p",
        "ar"
      ],
      [
        "es",
        "so"
      ],
      [
        "i",
        "to"
      ],
      [
        "Ġc",
        "er"
      ],
      [
        "Ġo",
        "b"
      ],
      [
        "ar",
        "ia"
      ],
      [
        "nt",
        "a"
      ],
      [
        "Ġm",
        "inha"
      ],
      [
        "en",
        "a"
      ],
      [
        "n",
        "de"
      ],
      [
        "Ġhom",
        "em"
      ],
      [
        "Ġl",
        "Ã¡"
      ],
      [
        "ĠÃł",
        "s"
      ],
      [
        "um",
        "a"
      ],
      [
        "Ġn",
        "as"
      ],
      [
        "d",
        "Ã©"
      ],
      [
        "ai",
        "x"
      ],
      [
        "Ġdo",
        "is"
      ],
      [
        "Ġs",
        "i"
      ],
      [
        "im",
        "ento"
      ],
      [
        "g",
        "e"
      ],
      [
        "go",
        "ra"
      ],
      [
        "n",
        "do"
      ],
      [
        "ÃŃ",
        "s"
      ],
      [
        "ĠM",
        "as"
      ],
      [
        "Ġs",
        "enh"
      ],
      [
        "Ġv",
        "e"
      ],
      [
        "es",
        "ta"
      ],
      [
        "de",
        "u"
      ],
      [
        "Ġde",
        "ix"
      ],
      [
        "Ã¡",
        "s"
      ],
      [
        "Ġs",
        "Ã£o"
      ],
      [
        "in",
        "u"
      ],
      [
        "is",
        "ta"
      ],
      [
        "l",
        "as"
      ],
      [
        "Ã§",
        "as"
      ],
      [
        "ĠD",
        "e"
      ],
      [
        "os",
        "a"
      ],
      [
        "Ġat",
        "Ã©"
      ],
      [
        "Ġto",
        "dos"
      ],
      [
        "Ġm",
        "u"
      ],
      [
        "Ġpor",
        "que"
      ],
      [
        "Ġt",
        "ambÃ©m"
      ],
      [
        "ent",
        "os"
      ],
      [
        "N",
        "Ã£o"
      ],
      [
        "r",
        "im"
      ],
      [
        "Ġse",
        "us"
      ],
      [
        "Ġver",
        "dade"
      ],
      [
        "v",
        "ia"
      ],
      [
        "Ġa",
        "f"
      ],
      [
        "z",
        "a"
      ],
      [
        "in",
        "do"
      ],
      [
        "Ġb",
        "em"
      ],
      [
        "Ġm",
        "Ã£"
      ],
      [
        "Ġesta",
        "va"
      ],
      [
        "Ġ",
        "U"
      ],
      [
        "Ġv",
        "ida"
      ],
      [
        "Ã³",
        "p"
      ],
      [
        "Ġint",
        "er"
      ],
      [
        "âĢ",
        "ľ"
      ],
      [
        "Ġpal",
        "av"
      ],
      [
        "Ġdiz",
        "er"
      ],
      [
        "ra",
        "r"
      ],
      [
        "b",
        "o"
      ],
      [
        "Ġcom",
        "p"
      ],
      [
        "ĠÃ",
        "º"
      ],
      [
        "Ġ",
        "ro"
      ],
      [
        "am",
        "os"
      ],
      [
        "Ġpou",
        "co"
      ],
      [
        "Ã",
        "į"
      ],
      [
        "un",
        "do"
      ],
      [
        "co",
        "nt"
      ],
      [
        "Ġ",
        "r"
      ],
      [
        "g",
        "ra"
      ],
      [
        "Ġmen",
        "os"
      ],
      [
        "inh",
        "o"
      ],
      [
        "p",
        "i"
      ],
      [
        "Ġt",
        "i"
      ],
      [
        "ri",
        "to"
      ],
      [
        "Ġest",
        "Ã¡"
      ],
      [
        "e",
        "ta"
      ],
      [
        "s",
        "os"
      ],
      [
        "C",
        "A"
      ],
      [
        "em",
        "os"
      ],
      [
        "Ġpo",
        "de"
      ],
      [
        "ĠÃ",
        "ī"
      ],
      [
        "am",
        "ente"
      ],
      [
        "j",
        "o"
      ],
      [
        "or",
        "es"
      ],
      [
        "Ġno",
        "i"
      ],
      [
        "Ġass",
        "im"
      ],
      [
        "os",
        "o"
      ],
      [
        "Ġf",
        "a"
      ],
      [
        "i",
        "u"
      ],
      [
        "j",
        "e"
      ],
      [
        "Ġf",
        "ic"
      ],
      [
        "Ġs",
        "im"
      ],
      [
        "Ġm",
        "al"
      ],
      [
        "Ġin",
        "s"
      ],
      [
        "Ġg",
        "ra"
      ],
      [
        "Ġes",
        "pe"
      ],
      [
        "c",
        "ar"
      ],
      [
        "Ġp",
        "ela"
      ],
      [
        "que",
        "le"
      ],
      [
        "Ġm",
        "an"
      ],
      [
        "Ã¢",
        "n"
      ],
      [
        "ara",
        "m"
      ],
      [
        "Ġgran",
        "de"
      ],
      [
        "gun",
        "s"
      ],
      [
        "Ġa",
        "ca"
      ],
      [
        "d",
        "ar"
      ],
      [
        "....",
        "...."
      ],
      [
        "lh",
        "er"
      ],
      [
        "c",
        "is"
      ],
      [
        "Ã³",
        "s"
      ],
      [
        "Ġl",
        "o"
      ],
      [
        "Ġcon",
        "f"
      ],
      [
        "e",
        "ra"
      ],
      [
        "Ġv",
        "ol"
      ],
      [
        "Ġh",
        "o"
      ],
      [
        "Ġdu",
        "as"
      ],
      [
        "l",
        "ÃŃ"
      ],
      [
        "âĢ",
        "Ŀ"
      ],
      [
        "s",
        "Ã£o"
      ],
      [
        "Ġ",
        "("
      ],
      [
        "a",
        "b"
      ],
      [
        "m",
        "as"
      ],
      [
        "Ġa",
        "qui"
      ],
      [
        "que",
        "la"
      ],
      [
        "in",
        "gu"
      ],
      [
        "Ġs",
        "ol"
      ],
      [
        "t",
        "ic"
      ],
      [
        "Ġa",
        "u"
      ],
      [
        "Ġpo",
        "dia"
      ],
      [
        "Ġp",
        "elo"
      ],
      [
        "Ġalgum",
        "a"
      ],
      [
        "Ġs",
        "al"
      ],
      [
        "c",
        "or"
      ],
      [
        "Ġi",
        "dÃ©"
      ],
      [
        "Ġis",
        "so"
      ],
      [
        "Ġp",
        "res"
      ],
      [
        "Ġa",
        "gora"
      ],
      [
        "ta",
        "va"
      ],
      [
        "Ã³",
        "ria"
      ],
      [
        "t",
        "ica"
      ],
      [
        "es",
        "t"
      ],
      [
        "ri",
        "os"
      ],
      [
        "Ġan",
        "os"
      ],
      [
        "or",
        "n"
      ],
      [
        "Ġli",
        "v"
      ],
      [
        "Ġm",
        "a"
      ],
      [
        "d",
        "em"
      ],
      [
        "m",
        "os"
      ],
      [
        "ĠQu",
        "e"
      ],
      [
        "Ġam",
        "or"
      ],
      [
        "Ġp",
        "u"
      ],
      [
        "p",
        "ara"
      ],
      [
        "Ġout",
        "ros"
      ],
      [
        "ve",
        "z"
      ],
      [
        "L",
        "O"
      ],
      [
        "Ġ",
        "1"
      ],
      [
        "ÃŃ",
        "vel"
      ],
      [
        "Ġa",
        "d"
      ],
      [
        "s",
        "as"
      ],
      [
        "l",
        "os"
      ],
      [
        "Ġpr",
        "Ã³p"
      ],
      [
        "Ġc",
        "am"
      ],
      [
        "Ġl",
        "on"
      ],
      [
        "ent",
        "a"
      ],
      [
        "Ġp",
        "esso"
      ],
      [
        "Ġal",
        "i"
      ],
      [
        "an",
        "a"
      ],
      [
        "os",
        "se"
      ],
      [
        "Ġal",
        "guns"
      ],
      [
        "am",
        "ento"
      ],
      [
        "Ġme",
        "lh"
      ],
      [
        "Qu",
        "e"
      ],
      [
        "at",
        "ro"
      ],
      [
        "ta",
        "do"
      ],
      [
        "im",
        "o"
      ],
      [
        "Ġis",
        "to"
      ],
      [
        "Ġ",
        "ru"
      ],
      [
        "Ġl",
        "ei"
      ],
      [
        "Ġc",
        "u"
      ],
      [
        "ci",
        "as"
      ],
      [
        "in",
        "o"
      ],
      [
        "Ġque",
        "m"
      ],
      [
        "ĠS",
        "e"
      ],
      [
        "re",
        "i"
      ],
      [
        "Ġd",
        "ar"
      ],
      [
        "Ġo",
        "nde"
      ],
      [
        "r",
        "er"
      ],
      [
        "t",
        "Ã¡"
      ],
      [
        "Ġfaz",
        "er"
      ],
      [
        "Ġper",
        "gu"
      ],
      [
        "Ġdi",
        "as"
      ],
      [
        "Ġqu",
        "al"
      ],
      [
        "n",
        "os"
      ],
      [
        "Ġ",
        "ia"
      ],
      [
        "ec",
        "ia"
      ],
      [
        "em",
        "b"
      ],
      [
        "A",
        "R"
      ],
      [
        "Ġp",
        "Ã©"
      ],
      [
        "ĠC",
        "om"
      ],
      [
        "v",
        "as"
      ],
      [
        "Ġso",
        "bre"
      ],
      [
        "l",
        "ar"
      ],
      [
        "p",
        "Ã©"
      ],
      [
        "Ġ",
        "un"
      ],
      [
        "en",
        "as"
      ],
      [
        "D",
        "e"
      ],
      [
        "os",
        "t"
      ],
      [
        "i",
        "or"
      ],
      [
        "Ġpas",
        "s"
      ],
      [
        "ĠE",
        "u"
      ],
      [
        "s",
        "em"
      ],
      [
        "av",
        "ia"
      ],
      [
        "ĠO",
        "s"
      ],
      [
        "Ġes",
        "se"
      ],
      [
        "Ġres",
        "pon"
      ],
      [
        "p",
        "ro"
      ],
      [
        "l",
        "t"
      ],
      [
        "ÃŃ",
        "n"
      ],
      [
        "f",
        "or"
      ],
      [
        "c",
        "re"
      ],
      [
        "Ġnoi",
        "te"
      ],
      [
        "Ġo",
        "lh"
      ],
      [
        "Ġa",
        "ntes"
      ],
      [
        "enh",
        "o"
      ],
      [
        "f",
        "ic"
      ],
      [
        "Ġc",
        "al"
      ],
      [
        "Ġera",
        "m"
      ],
      [
        "v",
        "os"
      ],
      [
        "Ġsu",
        "as"
      ],
      [
        "Ġmelh",
        "or"
      ],
      [
        "ant",
        "e"
      ],
      [
        "Ġent",
        "Ã£o"
      ],
      [
        "Ġaca",
        "b"
      ],
      [
        "Ġm",
        "Ã£o"
      ],
      [
        "Ġno",
        "me"
      ],
      [
        "Ġch",
        "e"
      ],
      [
        "Ġj",
        "u"
      ],
      [
        "Ã´",
        "n"
      ],
      [
        "T",
        "U"
      ],
      [
        "Ġs",
        "ei"
      ],
      [
        "on",
        "h"
      ],
      [
        "i",
        "Ã§Ã£o"
      ],
      [
        "Ġto",
        "das"
      ],
      [
        "Ġmes",
        "ma"
      ],
      [
        "Ġm",
        "im"
      ],
      [
        "ece",
        "u"
      ],
      [
        "al",
        "mente"
      ],
      [
        "Ġc",
        "ria"
      ],
      [
        "Ġo",
        "r"
      ],
      [
        "g",
        "re"
      ],
      [
        "un",
        "ca"
      ],
      [
        "es",
        "te"
      ],
      [
        "Ġf",
        "ez"
      ],
      [
        "Ġmu",
        "lher"
      ],
      [
        "ĠE",
        "ra"
      ],
      [
        "ĠA",
        "s"
      ],
      [
        "Ġ",
        "âĢľ"
      ],
      [
        "Ġpar",
        "te"
      ],
      [
        "s",
        "u"
      ],
      [
        "Ġco",
        "raÃ§Ã£o"
      ],
      [
        "Ġpas",
        "sa"
      ],
      [
        "P",
        "Ãį"
      ],
      [
        "TU",
        "LO"
      ],
      [
        "e",
        "t"
      ],
      [
        "Ġch",
        "am"
      ],
      [
        "PÃį",
        "TULO"
      ],
      [
        "l",
        "u"
      ],
      [
        "an",
        "o"
      ],
      [
        "Ġle",
        "va"
      ],
      [
        "Ġcois",
        "as"
      ],
      [
        "Ġv",
        "is"
      ],
      [
        "ec",
        "er"
      ],
      [
        "CA",
        "PÃįTULO"
      ],
      [
        "Ġesp",
        "ÃŃ"
      ],
      [
        "ĠE",
        "st"
      ],
      [
        "nt",
        "ou"
      ],
      [
        "ei",
        "ros"
      ],
      [
        "n",
        "Ã§a"
      ],
      [
        "p",
        "u"
      ],
      [
        "us",
        "a"
      ],
      [
        "ri",
        "as"
      ],
      [
        "Ġpo",
        "lÃŃ"
      ],
      [
        "Ġf",
        "osse"
      ],
      [
        "Ãº",
        "bl"
      ],
      [
        "Ġto",
        "da"
      ],
      [
        "Ġm",
        "eio"
      ],
      [
        "f",
        "ÃŃ"
      ],
      [
        "gu",
        "a"
      ],
      [
        "Ġca",
        "be"
      ],
      [
        "Ġlo",
        "go"
      ],
      [
        "Ġpre",
        "cis"
      ],
      [
        "Ġvez",
        "es"
      ],
      [
        "ĠidÃ©",
        "ia"
      ],
      [
        "Ã§",
        "os"
      ],
      [
        "Ġsem",
        "pre"
      ],
      [
        "c",
        "os"
      ],
      [
        "ti",
        "va"
      ],
      [
        "as",
        "se"
      ],
      [
        "Ġou",
        "vi"
      ],
      [
        "g",
        "i"
      ],
      [
        "n",
        "Ã£o"
      ],
      [
        "Ã",
        "¼"
      ],
      [
        "Ġtr",
        "Ãªs"
      ],
      [
        "ta",
        "mente"
      ],
      [
        "Ġmo",
        "Ã§a"
      ],
      [
        "v",
        "al"
      ],
      [
        "E",
        "s"
      ],
      [
        "is",
        "te"
      ],
      [
        "a",
        "u"
      ],
      [
        "a",
        "d"
      ],
      [
        "p",
        "el"
      ],
      [
        "Ġes",
        "sa"
      ],
      [
        "Ġcon",
        "h"
      ],
      [
        "a",
        "Ã§Ã£o"
      ],
      [
        "cu",
        "lo"
      ],
      [
        "i",
        "de"
      ],
      [
        "Ã¡",
        "vel"
      ],
      [
        "Ġal",
        "ma"
      ],
      [
        "en",
        "sa"
      ],
      [
        "e",
        "u"
      ],
      [
        "v",
        "es"
      ],
      [
        "Ġpor",
        "ta"
      ],
      [
        "ĠP",
        "o"
      ],
      [
        "ÃŃ",
        "lia"
      ],
      [
        "tura",
        "l"
      ],
      [
        "s",
        "im"
      ],
      [
        "t",
        "ÃŃ"
      ],
      [
        "Ġpalav",
        "ras"
      ],
      [
        "I",
        "I"
      ],
      [
        "v",
        "ar"
      ],
      [
        "s",
        "er"
      ],
      [
        "que",
        "r"
      ],
      [
        "Ġde",
        "le"
      ],
      [
        "er",
        "o"
      ],
      [
        "Ġse",
        "gu"
      ],
      [
        "ĠÃº",
        "lt"
      ],
      [
        "Ġ",
        "gu"
      ],
      [
        "b",
        "i"
      ],
      [
        "m",
        "es"
      ],
      [
        "C",
        "om"
      ],
      [
        "Ġv",
        "ai"
      ],
      [
        "Ġf",
        "l"
      ],
      [
        "e",
        "x"
      ],
      [
        "re",
        "io"
      ],
      [
        "ti",
        "vo"
      ],
      [
        "Ġout",
        "ras"
      ],
      [
        "Ġv",
        "al"
      ],
      [
        "Ġcas",
        "o"
      ],
      [
        "Ġt",
        "om"
      ],
      [
        "Ġf",
        "u"
      ],
      [
        "ĠA",
        "l"
      ],
      [
        "Ġ",
        "Ã¡"
      ],
      [
        "Ġde",
        "u"
      ],
      [
        "Ġp",
        "ra"
      ],
      [
        "Ġv",
        "ir"
      ],
      [
        "Ġh",
        "avia"
      ],
      [
        "Ġau",
        "tor"
      ],
      [
        "Ġb",
        "on"
      ],
      [
        "Ġre",
        "ce"
      ],
      [
        "Ġfo",
        "ra"
      ],
      [
        "Ġra",
        "z"
      ],
      [
        "en",
        "Ã§a"
      ],
      [
        "Ġpr",
        "in"
      ],
      [
        "Ġp",
        "Ã¡"
      ],
      [
        "Ġde",
        "f"
      ],
      [
        "p",
        "az"
      ],
      [
        "g",
        "em"
      ],
      [
        "Ġt",
        "ran"
      ],
      [
        "el",
        "os"
      ],
      [
        "ingu",
        "Ã©m"
      ],
      [
        "Ġs",
        "om"
      ],
      [
        "Ġsenh",
        "or"
      ],
      [
        "Ġsim",
        "p"
      ],
      [
        "ĠespÃŃ",
        "rito"
      ],
      [
        "t",
        "re"
      ],
      [
        "Ġpo",
        "eta"
      ],
      [
        "o",
        "i"
      ],
      [
        "Ã©",
        "u"
      ],
      [
        "Ġp",
        "ens"
      ],
      [
        "Ġap",
        "ar"
      ],
      [
        "Ġam",
        "igo"
      ],
      [
        "Ġto",
        "do"
      ],
      [
        "Ġprim",
        "eiro"
      ],
      [
        "r",
        "is"
      ],
      [
        "ĠR",
        "u"
      ],
      [
        "el",
        "as"
      ],
      [
        "u",
        "do"
      ],
      [
        "Ġa",
        "nt"
      ],
      [
        "Ġprim",
        "eira"
      ],
      [
        "ti",
        "tu"
      ],
      [
        "Ġesc",
        "re"
      ],
      [
        "d",
        "Ã£o"
      ],
      [
        "Ġm",
        "undo"
      ],
      [
        "Ġf",
        "im"
      ],
      [
        "Ġcom",
        "e"
      ],
      [
        "Ġsa",
        "b"
      ],
      [
        "g",
        "os"
      ],
      [
        "ran",
        "do"
      ],
      [
        "Ġs",
        "or"
      ],
      [
        "q",
        "Ã¼"
      ],
      [
        "pe",
        "ra"
      ],
      [
        "Ġp",
        "ai"
      ],
      [
        "Ġcabe",
        "Ã§a"
      ],
      [
        "ent",
        "es"
      ],
      [
        "lh",
        "as"
      ],
      [
        "Ġg",
        "os"
      ],
      [
        "Ġ",
        "ri"
      ],
      [
        "ĠmÃ£",
        "e"
      ],
      [
        "Ġt",
        "ar"
      ],
      [
        "di",
        "o"
      ],
      [
        "v",
        "ol"
      ],
      [
        "Ġn",
        "enh"
      ],
      [
        "i",
        "nt"
      ],
      [
        "Ġp",
        "Ã´"
      ],
      [
        "Ġg",
        "ente"
      ],
      [
        "h",
        "a"
      ],
      [
        "ĠmÃ£",
        "os"
      ],
      [
        "Ġs",
        "Ã©"
      ],
      [
        "com",
        "p"
      ],
      [
        "Ġse",
        "gun"
      ],
      [
        "Ãª",
        "m"
      ],
      [
        "Ġalgum",
        "as"
      ],
      [
        "Ġcar",
        "ta"
      ],
      [
        "R",
        "O"
      ],
      [
        "Ġe",
        "les"
      ],
      [
        "ĠE",
        "m"
      ],
      [
        "en",
        "Ã§Ã£o"
      ],
      [
        "Ġcer",
        "to"
      ],
      [
        "en",
        "de"
      ],
      [
        "ei",
        "ta"
      ],
      [
        "el",
        "e"
      ],
      [
        "Ġem",
        "b"
      ],
      [
        "f",
        "ia"
      ],
      [
        "Ġin",
        "f"
      ],
      [
        "Ġhom",
        "ens"
      ]
    ]
  }
}