{
  "version": "1.0",
  "truncation": null,
  "padding": null,
  "added_tokens": [
    {
      "id": 0,
      "content": "<endoftext>",
      "single_word": false,
      "lstrip": false,
      "rstrip": false,
      "normalized": false,
      "special": true
    },
    {
      "id": 1,
      "content": "<padding>",
      "single_word": false,
      "lstrip": false,
      "rstrip": false,
      "normalized": false,
      "special": true
    }
  ],
  "normalizer": null,
  "pre_tokenizer": {
    "type": "ByteLevel",
    "add_prefix_space": false,
    "trim_offsets": true,
    "use_regex": true
  },
  "post_processor": null,
  "decoder": {
    "type": "ByteLevel",
    "add_prefix_space": true,
    "trim_offsets": true,
    "use_regex": true
  },
  "model": {
    "type": "BPE",
    "dropout": null,
    "unk_token": null,
    "continuing_subword_prefix": null,
    "end_of_word_suffix": null,
    "fuse_unk": false,
    "byte_fallback": false,
    "ignore_merges": false,
    "vocab": {
      "<endoftext>": 0,
      "<padding>": 1,
      "!": 2,
      "\"": 3,
      "$": 4,
      "%": 5,
      "&": 6,
      "'": 7,
      "(": 8,
      ")": 9,
      "*": 10,
      "+": 11,
      ",": 12,
      "-": 13,
      ".": 14,
      "/": 15,
      "0": 16,
      "1": 17,
      "2": 18,
      "3": 19,
      "4": 20,
      "5": 21,
      "6": 22,
      "7": 23,
      "8": 24,
      "9": 25,
      ":": 26,
      ";": 27,
      "=": 28,
      "?": 29,
      "A": 30,
      "B": 31,
      "C": 32,
      "D": 33,
      "E": 34,
      "F": 35,
      "G": 36,
      "H": 37,
      "I": 38,
      "J": 39,
      "K": 40,
      "L": 41,
      "M": 42,
      "N": 43,
      "O": 44,
      "P": 45,
      "Q": 46,
      "R": 47,
      "S": 48,
      "T": 49,
      "U": 50,
      "V": 51,
      "W": 52,
      "X": 53,
      "Y": 54,
      "Z": 55,
      "_": 56,
      "`": 57,
      "a": 58,
      "b": 59,
      "c": 60,
      "d": 61,
      "e": 62,
      "f": 63,
      "g": 64,
      "h": 65,
      "i": 66,
      "j": 67,
      "k": 68,
      "l": 69,
      "m": 70,
      "n": 71,
      "o": 72,
      "p": 73,
      "q": 74,
      "r": 75,
      "s": 76,
      "t": 77,
      "u": 78,
      "v": 79,
      "w": 80,
      "x": 81,
      "y": 82,
      "z": 83,
      "¡": 84,
      "¢": 85,
      "£": 86,
      "¤": 87,
      "§": 88,
      "¨": 89,
      "©": 90,
      "ª": 91,
      "«": 92,
      "¬": 93,
      "®": 94,
      "¯": 95,
      "°": 96,
      "±": 97,
      "²": 98,
      "³": 99,
      "´": 100,
      "µ": 101,
      "¶": 102,
      "¹": 103,
      "º": 104,
      "»": 105,
      "¼": 106,
      "½": 107,
      "¿": 108,
      "Â": 109,
      "Ã": 110,
      "Å": 111,
      "â": 112,
      "Ċ": 113,
      "Ġ": 114,
      "Ģ": 115,
      "ģ": 116,
      "Ĥ": 117,
      "ĥ": 118,
      "ĩ": 119,
      "Ī": 120,
      "ī": 121,
      "Ĭ": 122,
      "ĭ": 123,
      "į": 124,
      "ĵ": 125,
      "Ķ": 126,
      "ķ": 127,
      "ļ": 128,
      "Ľ": 129,
      "ľ": 130,
      "ł": 131,
      "Ń": 132,
      "Ġd": 133,
      "Ġa": 134,
      "Ġe": 135,
      "ra": 136,
      "Ġp": 137,
      "Ġc": 138,
      "os": 139,
      "qu": 140,
      "Ġde": 141,
      "as": 142,
      "Ġs": 143,
      "Ġm": 144,
      "nt": 145,
      "re": 146,
      "Ġo": 147,
      "que": 148,
      "Ġn": 149,
      "Ã£": 150,
      "Ã£o": 151,
      "Ġque": 152,
      "er": 153,
      "Ġt": 154,
      "Ġco": 155,
      "is": 156,
      "ia": 157,
      "do": 158,
      "es": 159,
      "ar": 160,
      "in": 161,
      "Ġf": 162,
      "um": 163,
      "or": 164,
      "Ã©": 165,
      "da": 166,
      "Ġv": 167,
      "ta": 168,
      "Ã§": 169,
      "em": 170,
      "Ã¡": 171,
      "en": 172,
      "ro": 173,
      "Ġum": 174,
      "Ġes": 175,
      "Ġl": 176,
      "de": 177,
      "al": 178,
      "ent": 179,
      "to": 180,
      "im": 181,
      "Ġdo": 182,
      "se": 183,
      "Ġcom": 184,
      "ei": 185,
      "an": 186,
      "va": 187,
      "el": 188,
      "Ġse": 189,
      "ĠnÃ£o": 190,
      "Ġda": 191,
      "ha": 192,
      "ic": 193,
      "ou": 194,
      "ÃŃ": 195,
      "Ġre": 196,
      "Ġpa": 197,
      "âĢ": 198,
      "âĢĶ": 199,
      "ri": 200,
      "Ġb": 201,
      "he": 202,
      "te": 203,
      "ĠÃ©": 204,
      "am": 205,
      "ho": 206,
      "Ġas": 207,
      "Ġou": 208,
      "ĠA": 209,
      "ĠÃ": 210,
      "Ġos": 211,
      "Ã§Ã£o": 212,
      "Ġno": 213,
      "gu": 214,
      "Ġem": 215,
      "la": 216,
      "ĠE": 217,
      "us": 218,
      "on": 219,
      "Ġal": 220,
      "Ġuma": 221,
      "Ã³": 222,
      "res": 223,
      "Ġg": 224,
      "Ġpor": 225,
      "ida": 226,
      "Ġna": 227,
      "ente": 228,
      "nc": 229,
      "le": 230,
      "il": 231,
      "Ãª": 232,
      "ir": 233,
      "..": 234,
      "Ġma": 235,
      "ol": 236,
      "ĠC": 237,
      "Ġdes": 238,
      "ĠS": 239,
      "Ġpara": 240,
      "Ġdi": 241,
      "Ġme": 242,
      "ĠN": 243,
      "io": 244,
      "ĠD": 245,
      "go": 246,
      "Ġcon": 247,
      "ma": 248,
      "tu": 249,
      "Ġpo": 250,
      "Ã§a": 251,
      "ĠÃł": 252,
      "Ġin": 253,
      "sa": 254,
      "ĠO": 255,
      "Ġca": 256,
      "ti": 257,
      "so": 258,
      "ram": 259,
      "ul": 260,
      "Ġac": 261,
      "Ġqu": 262,
      "ras": 263,
      "nte": 264,
      "ce": 265,
      "Ġao": 266,
      "ĠM": 267,
      "ĠP": 268,
      "dos": 269,
      "me": 270,
      "ando": 271,
      "Ġmas": 272,
      "ve": 273,
      "Ġj": 274,
      "ĠâĢĶ": 275,
      "po": 276,
      "Ġh": 277,
      "inha": 278,
      "Ġmais": 279,
      "ran": 280,
      "om": 281,
      "Ġout": 282,
      "ica": 283,
      "Ġera": 284,
      "pa": 285,
      "ria": 286,
      "ga": 287,
      "Ġsu": 288,
      "Ġi": 289,
      "un": 290,
      "Ġdis": 291,
      "Ġex": 292,
      "Ġent": 293,
      "Ġpr": 294,
      "Ġcomo": 295,
      "ci": 296,
      "Ġsa": 297,
      "pe": 298,
      "ca": 299,
      "Ġdos": 300,
      "Ġest": 301,
      "Ġto": 302,
      "Ġfo": 303,
      "Ġam": 304,
      "di": 305,
      "ui": 306,
      "Ġpro": 307,
      "Ãµ": 308,
      "idade": 309,
      "Ġfa": 310,
      "Qu": 311,
      "Ġho": 312,
      "Ġcas": 313,
      "Ġmo": 314,
      "co": 315,
      "Ġper": 316,
      "Ġsem": 317,
      "ĠT": 318,
      "lo": 319,
      "nto": 320,
      "ver": 321,
      "Ãµes": 322,
      "ros": 323,
      "mente": 324,
      "Ġser": 325,
      "Ġtem": 326,
      "das": 327,
      "mo": 328,
      "Ġele": 329,
      "ento": 330,
      "ĠNÃ£o": 331,
      "lhe": 332,
      "Ġvi": 333,
      "Ġcont": 334,
      "Ãº": 335,
      "Ġesta": 336,
      "Ã©m": 337,
      "tos": 338,
      "Ġver": 339,
      "Ġlhe": 340,
      "ez": 341,
      "Ġan": 342,
      "ĠV": 343,
      "...": 344,
      "Ġres": 345,
      "Ġmes": 346,
      "tas": 347,
      "lh": 348,
      "Ġeu": 349,
      "ix": 350,
      "ĠQu": 351,
      "Ġap": 352,
      "rio": 353,
      "Ġim": 354,
      "Ġar": 355,
      "Ġnos": 356,
      "vo": 357,
      "cia": 358,
      "Ġdas": 359,
      "ala": 360,
      "dia": 361,
      "Ġpe": 362,
      "ncia": 363,
      "ĠF": 364,
      "ela": 365,
      "ina": 366,
      "st": 367,
      "vi": 368,
      "Ġter": 369,
      "Ġat": 370,
      "Ġpre": 371,
      "ĠR": 372,
      "Ġmui": 373,
      "Ġfoi": 374,
      "nta": 375,
      "Ġtu": 376,
      "Ġdiz": 377,
      "gum": 378,
      "eiro": 379,
      "ĠL": 380,
      "dade": 381,
      "Ġesc": 382,
      "ist": 383,
      "ens": 384,
      "Ã§o": 385,
      "ĠJ": 386,
      "Ġab": 387,
      "be": 388,
      "ĠhÃ¡": 389,
      "Ġnem": 390,
      "Ġle": 391,
      "ico": 392,
      "ru": 393,
      "ĠB": 394,
      "endo": 395,
      "Ġpas": 396,
      "Ġalgum": 397,
      "Ġdisse": 398,
      "Ġcois": 399,
      "Ã§Ãµes": 400,
      "na": 401,
      "Ġso": 402,
      "Ġtra": 403,
      "Ġfaz": 404,
      "Ġli": 405,
      "des": 406,
      "ntes": 407,
      "rar": 408,
      "Ġte": 409,
      "Ġolh": 410,
      "iz": 411,
      "rei": 412,
      "Ġen": 413,
      "ias": 414,
      "Ġcar": 415,
      "pi": 416,
      "vel": 417,
      "via": 418,
      "Ġass": 419,
      "eito": 420,
      "ado": 421,
      "tar": 422,
      "inda": 423,
      "cu": 424,
      "Ã´": 425,
      "Ġvez": 426,
      "ĠG": 427,
      "pl": 428,
      "Ġcor": 429,
      "Ġhom": 430,
      "Ġra": 431,
      "pos": 432,
      "Ġdia": 433,
      "Ãªncia": 434,
      "no": 435,
      "Ġpar": 436,
      "pre": 437,
      "rou": 438,
      "Ġela": 439,
      "ĠH": 440,
      "Ġis": 441,
      "vam": 442,
      "ter": 443,
      "Ġprim": 444,
      "raÃ§Ã£o": 445,
      "Ġdu": 446,
      "Ġint": 447,
      "pois": 448,
      "ĠsÃ³": 449,
      "bre": 450,
      "Ġfor": 451,
      "gar": 452,
      "Ġsen": 453,
      "ab": 454,
      "Ġob": 455,
      "Ġcasa": 456,
      "eira": 457,
      "Ġainda": 458,
      "Ġpare": 459,
      "Ġmen": 460,
      "Ġfal": 461,
      "Ġtempo": 462,
      "hor": 463,
      "ja": 464,
      "Ġmor": 465,
      "ĠI": 466,
      "qui": 467,
      "tou": 468,
      "at": 469,
      "ig": 470,
      "cer": 471,
      "Ġpou": 472,
      "amb": 473,
      "der": 474,
      "Ġesp": 475,
      "gun": 476,
      "Ã¢": 477,
      "igo": 478,
      "Ġvo": 479,
      "Ġquando": 480,
      "ĠEs": 481,
      "Ġtinha": 482,
      "Ġoutro": 483,
      "Ġmuito": 484,
      "ima": 485,
      "ĠDe": 486,
      "ess": 487,
      "ral": 488,
      "ido": 489,
      "eio": 490,
      "Ġtudo": 491,
      "Ġcons": 492,
      "ĠjÃ¡": 493,
      "elo": 494,
      "Ġsent": 495,
      "anto": 496,
      "Ġseu": 497,
      "Ġcoisa": 498,
      "tor": 499,
      "inh": 500,
      "ita": 501,
      "ĠQue": 502,
      "Ġdepois": 503,
      "ambÃ©m": 504,
      "Ġir": 505,
      "Ġmesmo": 506,
      "Ġmar": 507,
      "Ġentre": 508,
      "Ġtr": 509,
      "Ġpos": 510,
      "Ġgran": 511
    },
    "merges": [
      [
        "Ġ",
        "d"
      ],
      [
        "Ġ",
        "a"
      ],
      [
        "Ġ",
        "e"
      ],
      [
        "r",
        "a"
      ],
      [
        "Ġ",
        "p"
      ],
      [
        "Ġ",
        "c"
      ],
      [
        "o",
        "s"
      ],
      [
        "q",
        "u"
      ],
      [
        "Ġd",
        "e"
      ],
      [
        "a",
        "s"
      ],
      [
        "Ġ",
        "s"
      ],
      [
        "Ġ",
        "m"
      ],
      [
        "n",
        "t"
      ],
      [
        "r",
        "e"
      ],
      [
        "Ġ",
        "o"
      ],
      [
        "qu",
        "e"
      ],
      [
        "Ġ",
        "n"
      ],
      [
        "Ã",
        "£"
      ],
      [
        "Ã£",
        "o"
      ],
      [
        "Ġ",
        "que"
      ],
      [
        "e",
        "r"
      ],
      [
        "Ġ",
        "t"
      ],
      [
        "Ġc",
        "o"
      ],
      [
        "i",
        "s"
      ],
      [
        "i",
        "a"
      ],
      [
        "d",
        "o"
      ],
      [
        "e",
        "s"
      ],
      [
        "a",
        "r"
      ],
      [
        "i",
        "n"
      ],
      [
        "Ġ",
        "f"
      ],
      [
        "u",
        "m"
      ],
      [
        "o",
        "r"
      ],
      [
        "Ã",
        "©"
      ],
      [
        "d",
        "a"
      ],
      [
        "Ġ",
        "v"
      ],
      [
        "t",
        "a"
      ],
      [
        "Ã",
        "§"
      ],
      [
        "e",
        "m"
      ],
      [
        "Ã",
        "¡"
      ],
      [
        "e",
        "n"
      ],
      [
        "r",
        "o"
      ],
      [
        "Ġ",
        "um"
      ],
      [
        "Ġe",
        "s"
      ],
      [
        "Ġ",
        "l"
      ],
      [
        "d",
        "e"
      ],
      [
        "a",
        "l"
      ],
      [
        "e",
        "nt"
      ],
      [
        "t",
        "o"
      ],
      [
        "i",
        "m"
      ],
      [
        "Ġd",
        "o"
      ],
      [
        "s",
        "e"
      ],
      [
        "Ġco",
        "m"
      ],
      [
        "e",
        "i"
      ],
      [
        "a",
        "n"
      ],
      [
        "v",
        "a"
      ],
      [
        "e",
        "l"
      ],
      [
        "Ġs",
        "e"
      ],
      [
        "Ġn",
        "Ã£o"
      ],
      [
        "Ġd",
        "a"
      ],
      [
        "h",
        "a"
      ],
      [
        "i",
        "c"
      ],
      [
        "o",
        "u"
      ],
      [
        "Ã",
        "Ń"
      ],
      [
        "Ġ",
        "re"
      ],
      [
        "Ġp",
        "a"
      ],
      [
        "â",
        "Ģ"
      ],
      [
        "âĢ",
        "Ķ"
      ],
      [
        "r",
        "i"
      ],
      [
        "Ġ",
        "b"
      ],
      [
        "h",
        "e"
      ],
      [
        "t",
        "e"
      ],
      [
        "Ġ",
        "Ã©"
      ],
      [
        "a",
        "m"
      ],
      [
        "h",
        "o"
      ],
      [
        "Ġa",
        "s"
      ],
      [
        "Ġo",
        "u"
      ],
      [
        "Ġ",
        "A"
      ],
      [
        "Ġ",
        "Ã"
      ],
      [
        "Ġ",
        "os"
      ],
      [
        "Ã§",
        "Ã£o"
      ],
      [
        "Ġn",
        "o"
      ],
      [
        "g",
        "u"
      ],
      [
        "Ġe",
        "m"
      ],
      [
        "l",
        "a"
      ],
      [
        "Ġ",
        "E"
      ],
      [
        "u",
        "s"
      ],
      [
        "o",
        "n"
      ],
      [
        "Ġa",
        "l"
      ],
      [
        "Ġum",
        "a"
      ],
      [
        "Ã",
        "³"
      ],
      [
        "re",
        "s"
      ],
      [
        "Ġ",
        "g"
      ],
      [
        "Ġp",
        "or"
      ],
      [
        "i",
        "da"
      ],
      [
        "Ġn",
        "a"
      ],
      [
        "ent",
        "e"
      ],
      [
        "n",
        "c"
      ],
      [
        "l",
        "e"
      ],
      [
        "i",
        "l"
      ],
      [
        "Ã",
        "ª"
      ],
      [
        "i",
        "r"
      ],
      [
        ".",
        "."
      ],
      [
        "Ġm",
        "a"
      ],
      [
        "o",
        "l"
      ],
      [
        "Ġ",
        "C"
      ],
      [
        "Ġde",
        "s"
      ],
      [
        "Ġ",
        "S"
      ],
      [
        "Ġpa",
        "ra"
      ],
      [
        "Ġd",
        "i"
      ],
      [
        "Ġm",
        "e"
      ],
      [
        "Ġ",
        "N"
      ],
      [
        "i",
        "o"
      ],
      [
        "Ġ",
        "D"
      ],
      [
        "g",
        "o"
      ],
      [
        "Ġco",
        "n"
      ],
      [
        "m",
        "a"
      ],
      [
        "t",
        "u"
      ],
      [
        "Ġp",
        "o"
      ],
      [
        "Ã§",
        "a"
      ],
      [
        "ĠÃ",
        "ł"
      ],
      [
        "Ġ",
        "in"
      ],
      [
        "s",
        "a"
      ],
      [
        "Ġ",
        "O"
      ],
      [
        "Ġc",
        "a"
      ],
      [
        "t",
        "i"
      ],
      [
        "s",
        "o"
      ],
      [
        "ra",
        "m"
      ],
      [
        "u",
        "l"
      ],
      [
        "Ġa",
        "c"
      ],
      [
        "Ġ",
        "qu"
      ],
      [
        "ra",
        "s"
      ],
      [
        "nt",
        "e"
      ],
      [
        "c",
        "e"
      ],
      [
        "Ġa",
        "o"
      ],
      [
        "Ġ",
        "M"
      ],
      [
        "Ġ",
        "P"
      ],
      [
        "d",
        "os"
      ],
      [
        "m",
        "e"
      ],
      [
        "an",
        "do"
      ],
      [
        "Ġm",
        "as"
      ],
      [
        "v",
        "e"
      ],
      [
        "Ġ",
        "j"
      ],
      [
        "Ġ",
        "âĢĶ"
      ],
      [
        "p",
        "o"
      ],
      [
        "Ġ",
        "h"
      ],
      [
        "in",
        "ha"
      ],
      [
        "Ġma",
        "is"
      ],
      [
        "ra",
        "n"
      ],
      [
        "o",
        "m"
      ],
      [
        "Ġou",
        "t"
      ],
      [
        "ic",
        "a"
      ],
      [
        "Ġe",
        "ra"
      ],
      [
        "p",
        "a"
      ],
      [
        "r",
        "ia"
      ],
      [
        "g",
        "a"
      ],
      [
        "Ġs",
        "u"
      ],
      [
        "Ġ",
        "i"
      ],
      [
        "u",
        "n"
      ],
      [
        "Ġd",
        "is"
      ],
      [
        "Ġe",
        "x"
      ],
      [
        "Ġe",
        "nt"
      ],
      [
        "Ġp",
        "r"
      ],
      [
        "Ġcom",
        "o"
      ],
      [
        "c",
        "i"
      ],
      [
        "Ġs",
        "a"
      ],
      [
        "p",
        "e"
      ],
      [
        "c",
        "a"
      ],
      [
        "Ġd",
        "os"
      ],
      [
        "Ġes",
        "t"
      ],
      [
        "Ġt",
        "o"
      ],
      [
        "Ġf",
        "o"
      ],
      [
        "Ġa",
        "m"
      ],
      [
        "d",
        "i"
      ],
      [
        "u",
        "i"
      ],
      [
        "Ġp",
        "ro"
      ],
      [
        "Ã",
        "µ"
      ],
      [
        "ida",
        "de"
      ],
      [
        "Ġf",
        "a"
      ],
      [
        "Q",
        "u"
      ],
      [
        "Ġ",
        "ho"
      ],
      [
        "Ġc",
        "as"
      ],
      [
        "Ġm",
        "o"
      ],
      [
        "c",
        "o"
      ],
      [
        "Ġp",
        "er"
      ],
      [
        "Ġs",
        "em"
      ],
      [
        "Ġ",
        "T"
      ],
      [
        "l",
        "o"
      ],
      [
        "nt",
        "o"
      ],
      [
        "v",
        "er"
      ],
      [
        "Ãµ",
        "es"
      ],
      [
        "r",
        "os"
      ],
      [
        "m",
        "ente"
      ],
      [
        "Ġs",
        "er"
      ],
      [
        "Ġt",
        "em"
      ],
      [
        "d",
        "as"
      ],
      [
        "m",
        "o"
      ],
      [
        "Ġe",
        "le"
      ],
      [
        "ent",
        "o"
      ],
      [
        "ĠN",
        "Ã£o"
      ],
      [
        "l",
        "he"
      ],
      [
        "Ġv",
        "i"
      ],
      [
        "Ġco",
        "nt"
      ],
      [
        "Ã",
        "º"
      ],
      [
        "Ġes",
        "ta"
      ],
      [
        "Ã©",
        "m"
      ],
      [
        "t",
        "os"
      ],
      [
        "Ġv",
        "er"
      ],
      [
        "Ġl",
        "he"
      ],
      [
        "e",
        "z"
      ],
      [
        "Ġa",
        "n"
      ],
      [
        "Ġ",
        "V"
      ],
      [
        "..",
        "."
      ],
      [
        "Ġre",
        "s"
      ],
      [
        "Ġm",
        "es"
      ],
      [
        "t",
        "as"
      ],
      [
        "l",
        "h"
      ],
      [
        "Ġe",
        "u"
      ],
      [
        "i",
        "x"
      ],
      [
        "Ġ",
        "Qu"
      ],
      [
        "Ġa",
        "p"
      ],
      [
        "ri",
        "o"
      ],
      [
        "Ġ",
        "im"
      ],
      [
        "Ġa",
        "r"
      ],
      [
        "Ġn",
        "os"
      ],
      [
        "v",
        "o"
      ],
      [
        "c",
        "ia"
      ],
      [
        "Ġd",
        "as"
      ],
      [
        "al",
        "a"
      ],
      [
        "d",
        "ia"
      ],
      [
        "Ġp",
        "e"
      ],
      [
        "nc",
        "ia"
      ],
      [
        "Ġ",
        "F"
      ],
      [
        "el",
        "a"
      ],
      [
        "in",
        "a"
      ],
      [
        "s",
        "t"
      ],
      [
        "v",
        "i"
      ],
      [
        "Ġt",
        "er"
      ],
      [
        "Ġa",
        "t"
      ],
      [
        "Ġp",
        "re"
      ],
      [
        "Ġ",
        "R"
      ],
      [
        "Ġm",
        "ui"
      ],
      [
        "Ġfo",
        "i"
      ],
      [
        "nt",
        "a"
      ],
      [
        "Ġt",
        "u"
      ],
      [
        "Ġdi",
        "z"
      ],
      [
        "g",
        "um"
      ],
      [
        "ei",
        "ro"
      ],
      [
        "Ġ",
        "L"
      ],
      [
        "da",
        "de"
      ],
      [
        "Ġes",
        "c"
      ],
      [
        "is",
        "t"
      ],
      [
        "en",
        "s"
      ],
      [
        "Ã§",
        "o"
      ],
      [
        "Ġ",
        "J"
      ],
      [
        "Ġa",
        "b"
      ],
      [
        "b",
        "e"
      ],
      [
        "Ġh",
        "Ã¡"
      ],
      [
        "Ġn",
        "em"
      ],
      [
        "Ġl",
        "e"
      ],
      [
        "ic",
        "o"
      ],
      [
        "r",
        "u"
      ],
      [
        "Ġ",
        "B"
      ],
      [
        "en",
        "do"
      ],
      [
        "Ġp",
        "as"
      ],
      [
        "Ġal",
        "gum"
      ],
      [
        "Ġdis",
        "se"
      ],
      [
        "Ġco",
        "is"
      ],
      [
        "Ã§",
        "Ãµes"
      ],
      [
        "n",
        "a"
      ],
      [
        "Ġs",
        "o"
      ],
      [
        "Ġt",
        "ra"
      ],
      [
        "Ġfa",
        "z"
      ],
      [
        "Ġl",
        "i"
      ],
      [
        "d",
        "es"
      ],
      [
        "nt",
        "es"
      ],
      [
        "ra",
        "r"
      ],
      [
        "Ġt",
        "e"
      ],
      [
        "Ġo",
        "lh"
      ],
      [
        "i",
        "z"
      ],
      [
        "re",
        "i"
      ],
      [
        "Ġe",
        "n"
      ],
      [
        "i",
        "as"
      ],
      [
        "Ġc",
        "ar"
      ],
      [
        "p",
        "i"
      ],
      [
        "v",
        "el"
      ],
      [
        "v",
        "ia"
      ],
      [
        "Ġas",
        "s"
      ],
      [
        "ei",
        "to"
      ],
      [
        "a",
        "do"
      ],
      [
        "t",
        "ar"
      ],
      [
        "in",
        "da"
      ],
      [
        "c",
        "u"
      ],
      [
        "Ã",
        "´"
      ],
      [
        "Ġv",
        "ez"
      ],
      [
        "Ġ",
        "G"
      ],
      [
        "p",
        "l"
      ],
      [
        "Ġco",
        "r"
      ],
      [
        "Ġho",
        "m"
      ],
      [
        "Ġ",
        "ra"
      ],
      [
        "p",
        "os"
      ],
      [
        "Ġd",
        "ia"
      ],
      [
        "Ãª",
        "ncia"
      ],
      [
        "n",
        "o"
      ],
      [
        "Ġp",
        "ar"
      ],
      [
        "p",
        "re"
      ],
      [
        "ro",
        "u"
      ],
      [
        "Ġe",
        "la"
      ],
      [
        "Ġ",
        "H"
      ],
      [
        "Ġ",
        "is"
      ],
      [
        "va",
        "m"
      ],
      [
        "t",
        "er"
      ],
      [
        "Ġpr",
        "im"
      ],
      [
        "ra",
        "Ã§Ã£o"
      ],
      [
        "Ġd",
        "u"
      ],
      [
        "Ġi",
        "nt"
      ],
      [
        "po",
        "is"
      ],
      [
        "Ġs",
        "Ã³"
      ],
      [
        "b",
        "re"
      ],
      [
        "Ġf",
        "or"
      ],
      [
        "g",
        "ar"
      ],
      [
        "Ġs",
        "en"
      ],
      [
        "a",
        "b"
      ],
      [
        "Ġo",
        "b"
      ],
      [
        "Ġcas",
        "a"
      ],
      [
        "ei",
        "ra"
      ],
      [
        "Ġa",
        "inda"
      ],
      [
        "Ġpa",
        "re"
      ],
      [
        "Ġm",
        "en"
      ],
      [
        "Ġf",
        "al"
      ],
      [
        "Ġtem",
        "po"
      ],
      [
        "h",
        "or"
      ],
      [
        "j",
        "a"
      ],
      [
        "Ġm",
        "or"
      ],
      [
        "Ġ",
        "I"
      ],
      [
        "qu",
        "i"
      ],
      [
        "to",
        "u"
      ],
      [
        "a",
        "t"
      ],
      [
        "i",
        "g"
      ],
      [
        "c",
        "er"
      ],
      [
        "Ġp",
        "ou"
      ],
      [
        "am",
        "b"
      ],
      [
        "d",
        "er"
      ],
      [
        "Ġes",
        "p"
      ],
      [
        "gu",
        "n"
      ],
      [
        "Ã",
        "¢"
      ],
      [
        "i",
        "go"
      ],
      [
        "Ġv",
        "o"
      ],
      [
        "Ġqu",
        "ando"
      ],
      [
        "ĠE",
        "s"
      ],
      [
        "Ġt",
        "inha"
      ],
      [
        "Ġout",
        "ro"
      ],
      [
        "Ġmui",
        "to"
      ],
      [
        "im",
        "a"
      ],
      [
        "ĠD",
        "e"
      ],
      [
        "es",
        "s"
      ],
      [
        "ra",
        "l"
      ],
      [
        "i",
        "do"
      ],
      [
        "ei",
        "o"
      ],
      [
        "Ġtu",
        "do"
      ],
      [
        "Ġcon",
        "s"
      ],
      [
        "Ġj",
        "Ã¡"
      ],
      [
        "el",
        "o"
      ],
      [
        "Ġs",
        "ent"
      ],
      [
        "a",
        "nto"
      ],
      [
        "Ġse",
        "u"
      ],
      [
        "Ġcois",
        "a"
      ],
      [
        "t",
        "or"
      ],
      [
        "in",
        "h"
      ],
      [
        "i",
        "ta"
      ],
      [
        "ĠQu",
        "e"
      ],
      [
        "Ġde",
        "pois"
      ],
      [
        "amb",
        "Ã©m"
      ],
      [
        "Ġ",
        "ir"
      ],
      [
        "Ġmes",
        "mo"
      ],
      [
        "Ġm",
        "ar"
      ],
      [
        "Ġent",
        "re"
      ],
      [
        "Ġt",
        "r"
      ],
      [
        "Ġp",
        "os"
      ],
      [
        "Ġg",
        "ran"
      ]
    ]
  }
}